{"vocab": ["there ", "af", "nor", "6", "\u0096", "mall", ". For", "han", " great ", "2", "n", "ick", "ad", "fall", "aruman", " know", "sid", "ain", "ri", "ack", "udden", " as ", " le", "ound ", "king ", "ev", "cau", "gether", "ke ", "/", "come ", ". And ", "turn", "by ", " when", "ped ", "call", "to", "in a", ", and ", "shall", "fter", "not ", "led ", "op", "read", "ego", "\n     '", "Or", "C", "oromir", "S", ".' ", "light", "rider", "ves ", " in", "seemed to ", "! '", "over", " sha", " d", "dor", ". He ", "spok", "with", "see ", "still", "pe", "ugh", " this ", "arm", ", I", "-", "ap", "ly ", " what ", "n't ", "me ", ",' said Gandalf", "ear", "thou", "shad", "his ", "\"", "so ", "un", "F", " st", "tt", ". You", "wind", "ee", "een", "ve ", "bro", "*", " a", "car", "ud", "old ", "!'", " the ", "us", "well", " it ", "y", " its ", "from the ", "mer", " her", " with", "ving ", "ung", "Bilbo", "5", "9", "tre", " look", "d, ", "ast", "Ring", "av", " they ", "bo", "ey", "ig", "ade ", "      ", "gu", "way ", "?'\n     '", " must", "? ", "on the ", "an", "new", "will", " that ", ".'\n     `", "ever", "\u00f3", "to be", "ed, ", " and ", " is ", "how", " out ", "looked ", "ion", "nk", "ter", "ci", "clo", "az", "do", "aster", "omet", "unt", "reat ", "ras", "s ", "ome ", "dle", "lor", "head", "\u00ed", " at ", "himself", ". `", " can", " j", "ince ", "if", ",' said Frodo", "e of ", "water", "e and ", "ed, and ", "low", "p", "ll", "seem", "ss", "`", "ang", " h", "they ", " by ", "But ", " B", "There", ". It ", "stre", "has ", "For", "road", ".\n     ", "ce", " he sai", "ok", "ragorn", "es of ", " could ", "n the ", "po", "They ", " m", "aw", "ower", "ng", "ep", "uch", "ard", "B", "shadow", "over the ", "x", "Men", "t ", "under", ", and the ", "Faram", "ather", " one ", "We ", "  ", "ex", "; ", "found ", ",", "R", "ell", "d, and ", "es and ", "round ", "est", "T", " th", "con", "ree", "y, ", "mount", "it", "tal", "Ri", "D", "What ", "lear", "; and ", "ai", "me", "ed to ", "ing to ", "ry ", "made ", " was ", "lay ", "eep", ". S", "re", "St", "?", "li", " on the ", "west", "last", "where", "t of ", "ant ", "om", "away", "owards ", " ", "I", "m", "ent ", " he said", "would ", "for the ", ".\n     '", "Gim", "ttle", "Legola", " while", "Gol", "au", "more", "sk", "Merry", " k", "a ", "lack", "get", "orom", "ak", "lum", "near", "th", "ow", " for", "; but ", " are", "ed in", "ready ", "lu", "J", "sun", ",' he said", "saw", " into the ", "Gandalf", "men", "to the ", "ay", "X", "rien", "do ", "tain", " e", "ards ", "\u00c9", "t", "ill", "off", "sai", "air", "ose", "ent", "ft ", "You", " s", "Faramir", " am", "ew", "pro", " the", "\u00fb", "El", "in", "s, ", " him", "ipp", "fee", "fir", " us", "fell", "wards ", "deep", " will", "ally ", "uman", " be", "Well", "outh", "ts ", "ame ", "ght ", "ost", " v", "O", "e", "of", "\u00f1", "of ", "land", "down", "there was ", "sw", "omething", "b", " of ", "ings ", "look", "Gand", "eed ", "sh", "cre", " had", "in the ", "ook", "ry", "side ", "than", "a f", "ed. '", "a great ", "less ", "any ", "\n    ", "all", ", '", "ed ", "par", "to ", "ol", " tim", " your", "ur", "ith", "dark", "?'", " S", "\u00eb", "here", " g", "fol", "man", "high", "ngth", "tw", "know", "tter", "through", "U", "sc", "set ", "eak", " in the ", " don't ", "ake ", "hand", " do not ", "that", "Pipp", "ink", "way", "ha", ". '", "passed ", "Q", " abo", "s of ", "ds ", "and the ", "thing ", "rough", "ond ", ". ", "ood ", "ru", "it was ", "z", "we", "hind ", " he ", " see", ",\n           ", " hop", "'ll", " his ", "ore ", "heard ", "think", "the ", "obb", "u", "rod", " now", "es", "hor", "sp", "elt ", "own", "house", "hap", " on", "he ", "ag", "the", "Aragorn", "cla", " an", " go", " com", " f", "per", "voic", "\u00e4", "ness ", " w", "as ", "ere ", "for", " I", ". They ", "wer", "oic", ";", "ing, ", "ded ", "se", "able", "ate ", "came ", "ark", "ound", " like ", "hal", "rest", "ong", " hear", "sil", "o ", "v", "even", "ward ", " whi", ", but ", "4", " t", "q", "He ", "night", "M", "hobb", "la", "qu", "'ve ", "into the ", "are ", " not ", "ist", "w", "\u00fd", "hel", " way", "ver", "Orc", "8", "att", "soon", "it is ", "gh", " came ", "alf", "\u00ea", " we ", "s were ", "fore ", "ir", "did", "us ", "Frodo ", "ge ", "stood ", "mor", "ne", "war", " them", "ord ", " from", "about ", "at", "bre", "now", "rou", "L", "_", "\u00e1", "lo", "ar", "long", " to ", "they were ", " all", "that ", "Mr", "rong", ". H", " has ", "row", "Mor", "aid ", "a s", "al", "ish", "'t ", "\n     ", "too", "ding ", "!", "g", "\n\n     ", "is ", "e to ", "pas", "out ", "--", "been", "1", "again", "tim", " do ", "ss ", "raw", "7", "ved ", ",' said ", "pre", " my ", " some ", "say", "ouse", " la", ".\n\n     ", "dre", "fac", "ern", ". There", "e ", "ide ", " our", "end ", "den", " sh", "while", ", s", "yet ", ".'\n     ", "no", "black", " answer", "\u00c9om", "must", "3", " down", "hat ", "year", "s that ", "\u00fa", " have ", "il", "ac", "ly", "hol", "ber", "em", "did not ", ". B", "on't ", "i", "Sam", "lim", "Ent", "et ", "oo", "hobbits ", "be", "hen", "other", "gre", "ing", "ther", "Gimli", "sed ", ".\n     `", "am", "like ", "ight", "es ", "iel", "from", "hey ", ". No", "upon", "'s ", "ven", "ef", ", or", "rang", "got ", " no", "ic", "I have ", " their", "on", "s", "j", "Gollum", "Shire", "nt", "or", "were ", "only ", " p", "V", "ful", "f", "ould ", "wall", "tch", "ut ", "her", "ood", "day", "dow", "ght", "a", " any ", "pla", " ri", "ed and ", "ead", "as", "oon", ", ", "ston", "K", "And ", "self", "may", "when", "ust", "the s", "\u00f4", "had ", "at the ", "! ", " may", "!'\n     ", " said ", "H", " but ", "ned ", "W", ": ", "!' said ", "ing the ", "st", "its ", " many ", ". A", ". T", " c", "et", "im", "what ", " or", " ne", ". But ", "we ", "s. ", " pas", "before ", ")", " it", " b", "nd ", "their", " me", "bri", "hadow", " under", " of the ", "out", "many ", "whi", "at ", ", if", "uddenly ", "he had ", "far", "and ", "ive ", "rai", "ty ", ".", "ning ", "Frodo", "ted ", "into ", "l", "com", "d", "t, ", "de", ", as ", "much", " than", " shall", "e-", "h", "Shi", " more ", "mountain", "=", "ind", "star", " qu", "this ", " and the ", "gain", "could ", "sel", " fol", "run", "can", ":", "Pippin", "el", "hear", "onder", "A", "bur", "turned ", "until", "yond ", "your", ". Then", "ed with", " lo", "he was ", "my ", ", the ", ". O", "t's ", "ling", ". I", "and", " re", "them", "ous ", "k", " to the ", " up", "ave ", "e. ", " think", " gre", "tween", "pan", "Mer", "ld ", ",'", "up", "sent", "har", "Lego", "little", "for a", "mo", "    ", "e, ", "id", "\t", "ring", "Gondor", "ried ", "swer", "um", "have ", " M", "ed the ", " would ", " wor", "very ", "\u00d3", "od ", "er", "ul", "tru", "most", "ast ", "went ", "\u00e9", "ath", "\u00e2", "der", "leep", ".'\n     '", "arch", "0", "'\n     ", "it ", "door", "e, and ", ". W", "ount", "then", "ho ", "wa", "ind ", ". We ", "Ro", "ered ", "red ", "\n", "ck", "go", "It ", "after", " should ", "Rider", "ble", "ers ", "s, and ", " were ", "ten", "though", ".'", " back", "ch", "(", " there", "great ", "ree ", "but ", "hing", "ff", "\n           ", "one ", "nd", "\u0097", " day", " from the ", "ou", "wal", "ob", " did", " about ", "you", "Far", "wi", "light ", "ilbo", "N", "first", "had been", "is", "te ", "tur", "ed", "beg", "was ", "rom", "Z", "some ", "ach", "\u00ee", "en", "Frod", "he", "ither", "of the ", "ce ", "hi", "our", "open", "Then", "ing ", "oor", "Y", "s and ", "d ", "ight ", "ran", "which", " thou", "ro", "pp", "sing ", ". The ", " li", "Th", "Com", "o", "time ", "'", "him", " before ", "all the ", "E", "rag", " long", "Gon", "G", "wor", "ab", "P", "hill", "who ", "orn", " you", "es, ", "ting ", "No", "y ", "oul", "ken", " again", "At ", "c", "back", ". 'I", "left ", "le", "s of the ", "The ", "r"], "longest_token": 15, "vocab_size": 1000, "char_to_id": {"6": 0, "\u0096": 1, "4": 2, ".": 3, "q": 4, "2": 5, "n": 6, "?": 7, "M": 8, "d": 9, "l": 10, "w": 11, "\u00fd": 12, "h": 13, " ": 14, "I": 15, "/": 16, "m": 17, "8": 18, "=": 19, "\u00ea": 20, ":": 21, "A": 22, "C": 23, "J": 24, "S": 25, "X": 26, "L": 27, "_": 28, "\u00e1": 29, "k": 30, "\u00c9": 31, "t": 32, "r": 33, "-": 34, "!": 35, "g": 36, "\t": 37, "1": 38, "\u00fb": 39, "7": 40, "\"": 41, "\u00d3": 42, "F": 43, "\u00e9": 44, "\u00e2": 45, "*": 46, "0": 47, "y": 48, "O": 49, "e": 50, "\u00f1": 51, "\n": 52, "3": 53, "b": 54, "5": 55, "9": 56, "\u00fa": 57, "(": 58, "i": 59, "\u00f3": 60, "\u0097": 61, "N": 62, "\u00eb": 63, "Z": 64, "s": 65, "j": 66, "U": 67, "\u00ee": 68, "\u00ed": 69, "V": 70, "p": 71, "f": 72, "Q": 73, "`": 74, "Y": 75, "z": 76, "a": 77, "o": 78, "K": 79, "u": 80, "'": 81, "\u00f4": 82, "E": 83, "B": 84, "G": 85, "H": 86, "x": 87, "W": 88, "P": 89, "\u00e4": 90, ",": 91, "R": 92, ";": 93, "T": 94, ")": 95, "c": 96, "D": 97, "v": 98, "e ": 99, "th": 100, "d ": 101, "  ": 102, "t ": 103, "s ": 104, "in": 105, "an": 106, " th": 107, "er": 108, ", ": 109, "ou": 110, ". ": 111, "y ": 112, "and ": 113, "or": 114, "en": 115, " the ": 116, "ar": 117, "on": 118, "o ": 119, "ed ": 120, "ing": 121, "ll": 122, "of": 123, "    ": 124, " s": 125, "the ": 126, " h": 127, "at ": 128, "to ": 129, "re": 130, "ow": 131, "wa": 132, " a": 133, "\n    ": 134, "is ": 135, "st": 136, "om": 137, "nd ": 138, "\n     ": 139, "ha": 140, " w": 141, ", and ": 142, "gh": 143, "le": 144, "ing ": 145, "he ": 146, "ai": 147, "be": 148, "ere ": 149, "of ": 150, "hi": 151, "li": 152, "you": 153, "the": 154, " f": 155, "ro": 156, "se": 157, " and ": 158, "ut ": 159, "am": 160, "ri": 161, "no": 162, " m": 163, " c": 164, "oo": 165, "la": 166, "ve ": 167, " of ": 168, "he": 169, "as ": 170, "ld ": 171, "wi": 172, "it ": 173, "it": 174, "ir": 175, " d": 176, "for": 177, "ne": 178, "ng": 179, "ver": 180, ". T": 181, "not ": 182, "'\n     ": 183, "all": 184, "es ": 185, "al": 186, ".\n     ": 187, "was ": 188, "ck": 189, " b": 190, "ly ": 191, "nd": 192, "that ": 193, "ed": 194, "es": 195, " to ": 196, "aid ": 197, "ad": 198, " in": 199, " g": 200, "ter": 201, ". '": 202, "ag": 203, " t": 204, " the": 205, ",'": 206, "at": 207, " he ": 208, "now": 209, " said ": 210, "ur": 211, "im": 212, "up": 213, "ght ": 214, "of the ": 215, "ill": 216, "ould ": 217, "his ": 218, "ain": 219, "ch": 220, ".'\n     ": 221, "id": 222, ". I": 223, "ke ": 224, " you": 225, " p": 226, "ee": 227, "ell": 228, "as": 229, "they ": 230, "rod": 231, "ong": 232, "out ": 233, "un": 234, "ear": 235, "il": 236, "with": 237, "der": 238, "here": 239, "ome ": 240, "But ": 241, " was ": 242, "rom": 243, "had ": 244, " that ": 245, "ce ": 246, "e, ": 247, "'s ": 248, ". A": 249, "if": 250, "s, ": 251, "Frod": 252, "el": 253, "and": 254, "our": 255, "! ": 256, ",' said ": 257, "him": 258, "hen": 259, "ther": 260, "were ": 261, "ave ": 262, "He ": 263, "ook": 264, "sh": 265, " his ": 266, "op": 267, "ay": 268, "own": 269, "em": 270, "ght": 271, " st": 272, "ven": 273, "them": 274, "in the ": 275, " I": 276, "one ": 277, "s of ": 278, "ame ": 279, "hat ": 280, "pp": 281, "but ": 282, "et ": 283, " they ": 284, ".\n     '": 285, "orn": 286, "ol": 287, "ent ": 288, "sp": 289, "um": 290, "ith": 291, "long": 292, "to the ": 293, "any ": 294, "low": 295, ". The ": 296, ". But ": 297, "nt": 298, " it ": 299, "ust": 300, "ack": 301, ".'\n     '": 302, "ark": 303, "den": 304, " for": 305, "lo": 306, "ok": 307, "war": 308, "on the ": 309, "ab": 310, "Sam": 311, " li": 312, "have ": 313, "; and ": 314, "tt": 315, " of the ": 316, "ak": 317, "ds ": 318, "alf": 319, "rou": 320, "from": 321, " be": 322, "are ": 323, " e": 324, "look": 325, "reat ": 326, " have ": 327, ". He ": 328, "      ": 329, "d, ": 330, "old ": 331, " with": 332, "over": 333, "Gand": 334, "Gandalf": 335, "ood ": 336, "!'": 337, " as ": 338, "ore ": 339, "'t ": 340, " not ": 341, "ang": 342, "sed ": 343, "we ": 344, "its ": 345, "their": 346, "The ": 347, "ss ": 348, "wor": 349, "\n           ": 350, "y, ": 351, "ob": 352, "sel": 353, "there ": 354, "other": 355, "Frodo ": 356, "a ": 357, "? ": 358, " an": 359, "whi": 360, "Frodo": 361, "hey ": 362, "way ": 363, "will": 364, "row": 365, "know": 366, "is": 367, "tur": 368, "eep": 369, "aw": 370, "ep": 371, " but ": 372, " in the ": 373, " at ": 374, "qu": 375, "came ": 376, ". `": 377, "go": 378, " on": 379, "s and ": 380, " re": 381, ". W": 382, "t, ": 383, "ed to ": 384, "com": 385, "ath": 386, " him": 387, "ap": 388, "rag": 389, "by ": 390, "down": 391, "fore ": 392, "my ": 393, "ount": 394, "obb": 395, "av": 396, "sai": 397, "ight ": 398, "ac": 399, "last": 400, "ud": 401, "hear": 402, "ry ": 403, "s, and ": 404, "led ": 405, " is ": 406, "then": 407, "ion": 408, "so ": 409, "like ": 410, " had": 411, " no": 412, ". And ": 413, " from": 414, "air": 415, "been": 416, "uch": 417, "; but ": 418, " will": 419, "af": 420, "seem": 421, "ru": 422, "could ": 423, "dark": 424, "ide ": 425, " all": 426, "mo": 427, "unt": 428, " le": 429, "ic": 430, "gre": 431, "ned ": 432, "bo": 433, ". It ": 434, "ight": 435, "back": 436, ". S": 437, "again": 438, " we ": 439, "under": 440, "de": 441, "es, ": 442, "ey": 443, "ling": 444, "great ": 445, "ake ": 446, " he sai": 447, "ragorn": 448, "ast ": 449, "thou": 450, "You": 451, " their": 452, "ul": 453, "ipp": 454, "tre": 455, "e, and ": 456, "ed, ": 457, "far": 458, "El": 459, " la": 460, "And ": 461, "your": 462, "thing ": 463, "For": 464, "would ": 465, "Pipp": 466, "Pippin": 467, " whi": 468, "Aragorn": 469, "pas": 470, " them": 471, "men": 472, "very ": 473, "fir": 474, "still": 475, "ted ": 476, " up": 477, ". They ": 478, "ose": 479, "day": 480, " see": 481, "\n\n     ": 482, "even": 483, "come ": 484, "pe": 485, "self": 486, " to the ": 487, "ered ": 488, "read": 489, ", but ": 490, " or": 491, "s of the ": 492, "ttle": 493, "road": 494, "ly": 495, "ound ": 496, " sha": 497, "sw": 498, "more": 499, "ink": 500, ". 'I": 501, "s. ": 502, "ful": 503, " there": 504, "rough": 505, "ind ": 506, "ble": 507, "ring": 508, " ne": 509, "dor": 510, "tim": 511, "e of ": 512, "what ": 513, "looked ": 514, "gain": 515, " sh": 516, "au": 517, " can": 518, "ry": 519, "when": 520, "us ": 521, "Mer": 522, "ast": 523, "e. ": 524, "this ": 525, "off": 526, "some ": 527, " are": 528, "on't ": 529, "sk": 530, "away": 531, "ick": 532, "ning ": 533, "oic": 534, "lack": 535, "may": 536, "clo": 537, "ower": 538, " again": 539, "ew": 540, "aster": 541, "hobb": 542, ".'": 543, "ves ": 544, "did": 545, "est": 546, " were ": 547, "ever": 548, "ent": 549, "ho ": 550, "rang": 551, " than": 552, "tter": 553, " now": 554, "?'": 555, "\n     '": 556, "It ": 557, ", I": 558, "et": 559, "her": 560, "pla": 561, "udden": 562, "St": 563, "tw": 564, "went ": 565, "te ": 566, " long": 567, " am": 568, " it": 569, "head": 570, "has ": 571, "rien": 572, "can": 573, "oor": 574, "ing, ": 575, "do ": 576, "see ": 577, " this ": 578, " my ": 579, " your": 580, "way": 581, "dre": 582, " do ": 583, "s were ": 584, "ran": 585, "ft ": 586, "Or": 587, "oon": 588, "new": 589, "voic": 590, " M": 591, "Gol": 592, " abo": 593, "before ": 594, "only ": 595, "me ": 596, "No": 597, "about ": 598, "ig": 599, ": ": 600, "Then": 601, "There": 602, " he said": 603, "hor": 604, "fol": 605, "They ": 606, "us": 607, "many ": 608, "where": 609, "light ": 610, ", as ": 611, "ade ": 612, "ing to ": 613, "the s": 614, "from the ": 615, "must": 616, "lum": 617, "ather": 618, ".\n     `": 619, "ings ": 620, ",' he said": 621, "less ": 622, "nor": 623, "out": 624, "Far": 625, " B": 626, " ri": 627, "yet ": 628, "d, and ": 629, " k": 630, ", if": 631, "side ": 632, "ego": 633, "ond ": 634, ". There": 635, "sil": 636, "man": 637, "Ro": 638, "ting ": 639, "ards ": 640, "lear": 641, "say": 642, "ers ": 643, "rai": 644, "most": 645, "ge ": 646, "hill": 647, "Gollum": 648, "saw": 649, "well": 650, "than": 651, "ard": 652, " by ": 653, " would ": 654, "!' said ": 655, "it was ": 656, "gu": 657, "ed and ": 658, "We ": 659, "ss": 660, "ed the ": 661, " came ": 662, ". H": 663, "lim": 664, "'ll": 665, "outh": 666, "round ": 667, "hand": 668, "een": 669, "fall": 670, "Gim": 671, "Gimli": 672, "ish": 673, "Th": 674, "?'\n     '": 675, "cre": 676, "ind": 677, "get": 678, " thou": 679, "fee": 680, "onder": 681, "es of ": 682, ", and the ": 683, "little": 684, "through": 685, "me": 686, " from the ": 687, "uddenly ": 688, "bur": 689, " more ": 690, "water": 691, "hind ": 692, "do": 693, "n't ": 694, " com": 695, "ilbo": 696, "turned ": 697, "open": 698, "ist": 699, "hap": 700, "Shi": 701, "pre": 702, "s that ": 703, " know": 704, "ree ": 705, "night": 706, "shad": 707, "ouse": 708, "ed in": 709, "tch": 710, "fac": 711, "ugh": 712, " some ": 713, " out ": 714, "oul": 715, " hear": 716, " shall": 717, "hol": 718, "red ": 719, ".'\n     `": 720, "land": 721, " go": 722, "od ": 723, ", or": 724, "ber": 725, ". Then": 726, " on the ": 727, "ive ": 728, "king ": 729, "at the ": 730, "beg": 731, "though": 732, ". B": 733, "ed, and ": 734, "stood ": 735, "ward ": 736, "hing": 737, "e and ": 738, ". No": 739, "too": 740, "ef": 741, ".\n\n     ": 742, "ci": 743, " down": 744, "e to ": 745, "har": 746, ", the ": 747, "shadow": 748, ", '": 749, "Lego": 750, "Legola": 751, "shall": 752, "tal": 753, "leep": 754, "Mor": 755, "until": 756, "star": 757, "ord ": 758, "first": 759, "po": 760, "ed with": 761, "par": 762, "call": 763, "ead": 764, "Shire": 765, "owards ": 766, "stre": 767, " S": 768, "elt ": 769, " her": 770, "did not ": 771, " could ": 772, "which": 773, "per": 774, "ous ": 775, "nk": 776, "ped ": 777, "ff": 778, "ness ": 779, " lo": 780, "in a": 781, "after": 782, "made ": 783, "bre": 784, ",\n           ": 785, "for a": 786, "ev": 787, " like ": 788, "able": 789, "light": 790, "yond ": 791, "rider": 792, "tain": 793, "wall": 794, "raw": 795, ", s": 796, "a f": 797, "att": 798, "ried ": 799, "deep": 800, "dow": 801, "ts ": 802, " think": 803, "--": 804, "to": 805, "Orc": 806, " before ": 807, "ant ": 808, "mount": 809, "iel": 810, " many ": 811, "near": 812, " us": 813, "over the ": 814, ". O": 815, " what ": 816, "a s": 817, "ded ": 818, "sid": 819, "wer": 820, "dle": 821, "black": 822, "heard ": 823, "for the ": 824, "high": 825, "ding ": 826, "year": 827, "ready ": 828, "fell": 829, " while": 830, "much": 831, "ither": 832, "upon": 833, "Faram": 834, "Faramir": 835, "Ri": 836, "Ring": 837, "hobbits ": 838, "! '": 839, "ras": 840, "e-": 841, "he was ": 842, " back": 843, ".' ": 844, "mall": 845, "to be": 846, "omet": 847, " may": 848, "passed ": 849, "left ": 850, " tim": 851, "t of ": 852, "wards ": 853, " j": 854, "What ": 855, "ung": 856, "uman": 857, "sc": 858, "aruman": 859, "sing ": 860, "ten": 861, "I have ": 862, "hel": 863, "ex": 864, "n the ": 865, " day": 866, "fter": 867, "into ": 868, "orom": 869, "oromir": 870, "ate ": 871, "ince ": 872, " its ": 873, " gre": 874, "ving ": 875, "Mr": 876, "how": 877, "door": 878, "himself": 879, "seemed to ": 880, "!'\n     ": 881, "es and ": 882, "Well": 883, "ce": 884, "Gon": 885, ". For": 886, "they were ": 887, " look": 888, " great ": 889, "swer": 890, " and the ": 891, "lu": 892, ". We ": 893, "Gondor": 894, " did": 895, "ved ": 896, " must": 897, "Com": 898, "while": 899, "ston": 900, " about ": 901, "found ": 902, "mor": 903, "he had ": 904, "sun": 905, " under": 906, "ood": 907, " one ": 908, "az": 909, "con": 910, "arch": 911, " answer": 912, " do not ": 913, "gether": 914, "ost": 915, "who ": 916, "tween": 917, "ach": 918, "ing the ": 919, "a great ": 920, " way": 921, " into the ": 922, ",' said Frodo": 923, " v": 924, "wind": 925, " our": 926, "lay ": 927, "lor": 928, "han": 929, "ound": 930, "bri": 931, "Men": 932, "set ": 933, "mountain": 934, "end ": 935, "we": 936, " any ": 937, " don't ": 938, ". You": 939, " hop": 940, "all the ": 941, " should ": 942, "west": 943, "ty ": 944, "soon": 945, "ken": 946, " wor": 947, " me": 948, "car": 949, "turn": 950, "arm": 951, "ree": 952, "got ": 953, "Merry": 954, "; ": 955, "that": 956, "'ve ": 957, "pan": 958, "spok": 959, "hal": 960, "tru": 961, "mer": 962, "rong": 963, "ern": 964, "rest": 965, "time ": 966, "and the ": 967, "cla": 968, "had been": 969, "it is ": 970, "think": 971, " qu": 972, "ed. '": 973, ",' said Gandalf": 974, "cau": 975, "there was ": 976, "sent": 977, "eed ": 978, "omething": 979, "ngth": 980, "house": 981, "Bilbo": 982, "At ": 983, "ally ": 984, "pro": 985, " fol": 986, "wal": 987, "run": 988, "Rider": 989, " pas": 990, "bro": 991, "t's ": 992, "Ent": 993, "hadow": 994, " has ": 995, "eak": 996, "\u00c9om": 997, " when": 998, "into the ": 999}, "id_to_char": {"0": "6", "1": "\u0096", "2": "4", "3": ".", "4": "q", "5": "2", "6": "n", "7": "?", "8": "M", "9": "d", "10": "l", "11": "w", "12": "\u00fd", "13": "h", "14": " ", "15": "I", "16": "/", "17": "m", "18": "8", "19": "=", "20": "\u00ea", "21": ":", "22": "A", "23": "C", "24": "J", "25": "S", "26": "X", "27": "L", "28": "_", "29": "\u00e1", "30": "k", "31": "\u00c9", "32": "t", "33": "r", "34": "-", "35": "!", "36": "g", "37": "\t", "38": "1", "39": "\u00fb", "40": "7", "41": "\"", "42": "\u00d3", "43": "F", "44": "\u00e9", "45": "\u00e2", "46": "*", "47": "0", "48": "y", "49": "O", "50": "e", "51": "\u00f1", "52": "\n", "53": "3", "54": "b", "55": "5", "56": "9", "57": "\u00fa", "58": "(", "59": "i", "60": "\u00f3", "61": "\u0097", "62": "N", "63": "\u00eb", "64": "Z", "65": "s", "66": "j", "67": "U", "68": "\u00ee", "69": "\u00ed", "70": "V", "71": "p", "72": "f", "73": "Q", "74": "`", "75": "Y", "76": "z", "77": "a", "78": "o", "79": "K", "80": "u", "81": "'", "82": "\u00f4", "83": "E", "84": "B", "85": "G", "86": "H", "87": "x", "88": "W", "89": "P", "90": "\u00e4", "91": ",", "92": "R", "93": ";", "94": "T", "95": ")", "96": "c", "97": "D", "98": "v", "99": "e ", "100": "th", "101": "d ", "102": "  ", "103": "t ", "104": "s ", "105": "in", "106": "an", "107": " th", "108": "er", "109": ", ", "110": "ou", "111": ". ", "112": "y ", "113": "and ", "114": "or", "115": "en", "116": " the ", "117": "ar", "118": "on", "119": "o ", "120": "ed ", "121": "ing", "122": "ll", "123": "of", "124": "    ", "125": " s", "126": "the ", "127": " h", "128": "at ", "129": "to ", "130": "re", "131": "ow", "132": "wa", "133": " a", "134": "\n    ", "135": "is ", "136": "st", "137": "om", "138": "nd ", "139": "\n     ", "140": "ha", "141": " w", "142": ", and ", "143": "gh", "144": "le", "145": "ing ", "146": "he ", "147": "ai", "148": "be", "149": "ere ", "150": "of ", "151": "hi", "152": "li", "153": "you", "154": "the", "155": " f", "156": "ro", "157": "se", "158": " and ", "159": "ut ", "160": "am", "161": "ri", "162": "no", "163": " m", "164": " c", "165": "oo", "166": "la", "167": "ve ", "168": " of ", "169": "he", "170": "as ", "171": "ld ", "172": "wi", "173": "it ", "174": "it", "175": "ir", "176": " d", "177": "for", "178": "ne", "179": "ng", "180": "ver", "181": ". T", "182": "not ", "183": "'\n     ", "184": "all", "185": "es ", "186": "al", "187": ".\n     ", "188": "was ", "189": "ck", "190": " b", "191": "ly ", "192": "nd", "193": "that ", "194": "ed", "195": "es", "196": " to ", "197": "aid ", "198": "ad", "199": " in", "200": " g", "201": "ter", "202": ". '", "203": "ag", "204": " t", "205": " the", "206": ",'", "207": "at", "208": " he ", "209": "now", "210": " said ", "211": "ur", "212": "im", "213": "up", "214": "ght ", "215": "of the ", "216": "ill", "217": "ould ", "218": "his ", "219": "ain", "220": "ch", "221": ".'\n     ", "222": "id", "223": ". I", "224": "ke ", "225": " you", "226": " p", "227": "ee", "228": "ell", "229": "as", "230": "they ", "231": "rod", "232": "ong", "233": "out ", "234": "un", "235": "ear", "236": "il", "237": "with", "238": "der", "239": "here", "240": "ome ", "241": "But ", "242": " was ", "243": "rom", "244": "had ", "245": " that ", "246": "ce ", "247": "e, ", "248": "'s ", "249": ". A", "250": "if", "251": "s, ", "252": "Frod", "253": "el", "254": "and", "255": "our", "256": "! ", "257": ",' said ", "258": "him", "259": "hen", "260": "ther", "261": "were ", "262": "ave ", "263": "He ", "264": "ook", "265": "sh", "266": " his ", "267": "op", "268": "ay", "269": "own", "270": "em", "271": "ght", "272": " st", "273": "ven", "274": "them", "275": "in the ", "276": " I", "277": "one ", "278": "s of ", "279": "ame ", "280": "hat ", "281": "pp", "282": "but ", "283": "et ", "284": " they ", "285": ".\n     '", "286": "orn", "287": "ol", "288": "ent ", "289": "sp", "290": "um", "291": "ith", "292": "long", "293": "to the ", "294": "any ", "295": "low", "296": ". The ", "297": ". But ", "298": "nt", "299": " it ", "300": "ust", "301": "ack", "302": ".'\n     '", "303": "ark", "304": "den", "305": " for", "306": "lo", "307": "ok", "308": "war", "309": "on the ", "310": "ab", "311": "Sam", "312": " li", "313": "have ", "314": "; and ", "315": "tt", "316": " of the ", "317": "ak", "318": "ds ", "319": "alf", "320": "rou", "321": "from", "322": " be", "323": "are ", "324": " e", "325": "look", "326": "reat ", "327": " have ", "328": ". He ", "329": "      ", "330": "d, ", "331": "old ", "332": " with", "333": "over", "334": "Gand", "335": "Gandalf", "336": "ood ", "337": "!'", "338": " as ", "339": "ore ", "340": "'t ", "341": " not ", "342": "ang", "343": "sed ", "344": "we ", "345": "its ", "346": "their", "347": "The ", "348": "ss ", "349": "wor", "350": "\n           ", "351": "y, ", "352": "ob", "353": "sel", "354": "there ", "355": "other", "356": "Frodo ", "357": "a ", "358": "? ", "359": " an", "360": "whi", "361": "Frodo", "362": "hey ", "363": "way ", "364": "will", "365": "row", "366": "know", "367": "is", "368": "tur", "369": "eep", "370": "aw", "371": "ep", "372": " but ", "373": " in the ", "374": " at ", "375": "qu", "376": "came ", "377": ". `", "378": "go", "379": " on", "380": "s and ", "381": " re", "382": ". W", "383": "t, ", "384": "ed to ", "385": "com", "386": "ath", "387": " him", "388": "ap", "389": "rag", "390": "by ", "391": "down", "392": "fore ", "393": "my ", "394": "ount", "395": "obb", "396": "av", "397": "sai", "398": "ight ", "399": "ac", "400": "last", "401": "ud", "402": "hear", "403": "ry ", "404": "s, and ", "405": "led ", "406": " is ", "407": "then", "408": "ion", "409": "so ", "410": "like ", "411": " had", "412": " no", "413": ". And ", "414": " from", "415": "air", "416": "been", "417": "uch", "418": "; but ", "419": " will", "420": "af", "421": "seem", "422": "ru", "423": "could ", "424": "dark", "425": "ide ", "426": " all", "427": "mo", "428": "unt", "429": " le", "430": "ic", "431": "gre", "432": "ned ", "433": "bo", "434": ". It ", "435": "ight", "436": "back", "437": ". S", "438": "again", "439": " we ", "440": "under", "441": "de", "442": "es, ", "443": "ey", "444": "ling", "445": "great ", "446": "ake ", "447": " he sai", "448": "ragorn", "449": "ast ", "450": "thou", "451": "You", "452": " their", "453": "ul", "454": "ipp", "455": "tre", "456": "e, and ", "457": "ed, ", "458": "far", "459": "El", "460": " la", "461": "And ", "462": "your", "463": "thing ", "464": "For", "465": "would ", "466": "Pipp", "467": "Pippin", "468": " whi", "469": "Aragorn", "470": "pas", "471": " them", "472": "men", "473": "very ", "474": "fir", "475": "still", "476": "ted ", "477": " up", "478": ". They ", "479": "ose", "480": "day", "481": " see", "482": "\n\n     ", "483": "even", "484": "come ", "485": "pe", "486": "self", "487": " to the ", "488": "ered ", "489": "read", "490": ", but ", "491": " or", "492": "s of the ", "493": "ttle", "494": "road", "495": "ly", "496": "ound ", "497": " sha", "498": "sw", "499": "more", "500": "ink", "501": ". 'I", "502": "s. ", "503": "ful", "504": " there", "505": "rough", "506": "ind ", "507": "ble", "508": "ring", "509": " ne", "510": "dor", "511": "tim", "512": "e of ", "513": "what ", "514": "looked ", "515": "gain", "516": " sh", "517": "au", "518": " can", "519": "ry", "520": "when", "521": "us ", "522": "Mer", "523": "ast", "524": "e. ", "525": "this ", "526": "off", "527": "some ", "528": " are", "529": "on't ", "530": "sk", "531": "away", "532": "ick", "533": "ning ", "534": "oic", "535": "lack", "536": "may", "537": "clo", "538": "ower", "539": " again", "540": "ew", "541": "aster", "542": "hobb", "543": ".'", "544": "ves ", "545": "did", "546": "est", "547": " were ", "548": "ever", "549": "ent", "550": "ho ", "551": "rang", "552": " than", "553": "tter", "554": " now", "555": "?'", "556": "\n     '", "557": "It ", "558": ", I", "559": "et", "560": "her", "561": "pla", "562": "udden", "563": "St", "564": "tw", "565": "went ", "566": "te ", "567": " long", "568": " am", "569": " it", "570": "head", "571": "has ", "572": "rien", "573": "can", "574": "oor", "575": "ing, ", "576": "do ", "577": "see ", "578": " this ", "579": " my ", "580": " your", "581": "way", "582": "dre", "583": " do ", "584": "s were ", "585": "ran", "586": "ft ", "587": "Or", "588": "oon", "589": "new", "590": "voic", "591": " M", "592": "Gol", "593": " abo", "594": "before ", "595": "only ", "596": "me ", "597": "No", "598": "about ", "599": "ig", "600": ": ", "601": "Then", "602": "There", "603": " he said", "604": "hor", "605": "fol", "606": "They ", "607": "us", "608": "many ", "609": "where", "610": "light ", "611": ", as ", "612": "ade ", "613": "ing to ", "614": "the s", "615": "from the ", "616": "must", "617": "lum", "618": "ather", "619": ".\n     `", "620": "ings ", "621": ",' he said", "622": "less ", "623": "nor", "624": "out", "625": "Far", "626": " B", "627": " ri", "628": "yet ", "629": "d, and ", "630": " k", "631": ", if", "632": "side ", "633": "ego", "634": "ond ", "635": ". There", "636": "sil", "637": "man", "638": "Ro", "639": "ting ", "640": "ards ", "641": "lear", "642": "say", "643": "ers ", "644": "rai", "645": "most", "646": "ge ", "647": "hill", "648": "Gollum", "649": "saw", "650": "well", "651": "than", "652": "ard", "653": " by ", "654": " would ", "655": "!' said ", "656": "it was ", "657": "gu", "658": "ed and ", "659": "We ", "660": "ss", "661": "ed the ", "662": " came ", "663": ". H", "664": "lim", "665": "'ll", "666": "outh", "667": "round ", "668": "hand", "669": "een", "670": "fall", "671": "Gim", "672": "Gimli", "673": "ish", "674": "Th", "675": "?'\n     '", "676": "cre", "677": "ind", "678": "get", "679": " thou", "680": "fee", "681": "onder", "682": "es of ", "683": ", and the ", "684": "little", "685": "through", "686": "me", "687": " from the ", "688": "uddenly ", "689": "bur", "690": " more ", "691": "water", "692": "hind ", "693": "do", "694": "n't ", "695": " com", "696": "ilbo", "697": "turned ", "698": "open", "699": "ist", "700": "hap", "701": "Shi", "702": "pre", "703": "s that ", "704": " know", "705": "ree ", "706": "night", "707": "shad", "708": "ouse", "709": "ed in", "710": "tch", "711": "fac", "712": "ugh", "713": " some ", "714": " out ", "715": "oul", "716": " hear", "717": " shall", "718": "hol", "719": "red ", "720": ".'\n     `", "721": "land", "722": " go", "723": "od ", "724": ", or", "725": "ber", "726": ". Then", "727": " on the ", "728": "ive ", "729": "king ", "730": "at the ", "731": "beg", "732": "though", "733": ". B", "734": "ed, and ", "735": "stood ", "736": "ward ", "737": "hing", "738": "e and ", "739": ". No", "740": "too", "741": "ef", "742": ".\n\n     ", "743": "ci", "744": " down", "745": "e to ", "746": "har", "747": ", the ", "748": "shadow", "749": ", '", "750": "Lego", "751": "Legola", "752": "shall", "753": "tal", "754": "leep", "755": "Mor", "756": "until", "757": "star", "758": "ord ", "759": "first", "760": "po", "761": "ed with", "762": "par", "763": "call", "764": "ead", "765": "Shire", "766": "owards ", "767": "stre", "768": " S", "769": "elt ", "770": " her", "771": "did not ", "772": " could ", "773": "which", "774": "per", "775": "ous ", "776": "nk", "777": "ped ", "778": "ff", "779": "ness ", "780": " lo", "781": "in a", "782": "after", "783": "made ", "784": "bre", "785": ",\n           ", "786": "for a", "787": "ev", "788": " like ", "789": "able", "790": "light", "791": "yond ", "792": "rider", "793": "tain", "794": "wall", "795": "raw", "796": ", s", "797": "a f", "798": "att", "799": "ried ", "800": "deep", "801": "dow", "802": "ts ", "803": " think", "804": "--", "805": "to", "806": "Orc", "807": " before ", "808": "ant ", "809": "mount", "810": "iel", "811": " many ", "812": "near", "813": " us", "814": "over the ", "815": ". O", "816": " what ", "817": "a s", "818": "ded ", "819": "sid", "820": "wer", "821": "dle", "822": "black", "823": "heard ", "824": "for the ", "825": "high", "826": "ding ", "827": "year", "828": "ready ", "829": "fell", "830": " while", "831": "much", "832": "ither", "833": "upon", "834": "Faram", "835": "Faramir", "836": "Ri", "837": "Ring", "838": "hobbits ", "839": "! '", "840": "ras", "841": "e-", "842": "he was ", "843": " back", "844": ".' ", "845": "mall", "846": "to be", "847": "omet", "848": " may", "849": "passed ", "850": "left ", "851": " tim", "852": "t of ", "853": "wards ", "854": " j", "855": "What ", "856": "ung", "857": "uman", "858": "sc", "859": "aruman", "860": "sing ", "861": "ten", "862": "I have ", "863": "hel", "864": "ex", "865": "n the ", "866": " day", "867": "fter", "868": "into ", "869": "orom", "870": "oromir", "871": "ate ", "872": "ince ", "873": " its ", "874": " gre", "875": "ving ", "876": "Mr", "877": "how", "878": "door", "879": "himself", "880": "seemed to ", "881": "!'\n     ", "882": "es and ", "883": "Well", "884": "ce", "885": "Gon", "886": ". For", "887": "they were ", "888": " look", "889": " great ", "890": "swer", "891": " and the ", "892": "lu", "893": ". We ", "894": "Gondor", "895": " did", "896": "ved ", "897": " must", "898": "Com", "899": "while", "900": "ston", "901": " about ", "902": "found ", "903": "mor", "904": "he had ", "905": "sun", "906": " under", "907": "ood", "908": " one ", "909": "az", "910": "con", "911": "arch", "912": " answer", "913": " do not ", "914": "gether", "915": "ost", "916": "who ", "917": "tween", "918": "ach", "919": "ing the ", "920": "a great ", "921": " way", "922": " into the ", "923": ",' said Frodo", "924": " v", "925": "wind", "926": " our", "927": "lay ", "928": "lor", "929": "han", "930": "ound", "931": "bri", "932": "Men", "933": "set ", "934": "mountain", "935": "end ", "936": "we", "937": " any ", "938": " don't ", "939": ". You", "940": " hop", "941": "all the ", "942": " should ", "943": "west", "944": "ty ", "945": "soon", "946": "ken", "947": " wor", "948": " me", "949": "car", "950": "turn", "951": "arm", "952": "ree", "953": "got ", "954": "Merry", "955": "; ", "956": "that", "957": "'ve ", "958": "pan", "959": "spok", "960": "hal", "961": "tru", "962": "mer", "963": "rong", "964": "ern", "965": "rest", "966": "time ", "967": "and the ", "968": "cla", "969": "had been", "970": "it is ", "971": "think", "972": " qu", "973": "ed. '", "974": ",' said Gandalf", "975": "cau", "976": "there was ", "977": "sent", "978": "eed ", "979": "omething", "980": "ngth", "981": "house", "982": "Bilbo", "983": "At ", "984": "ally ", "985": "pro", "986": " fol", "987": "wal", "988": "run", "989": "Rider", "990": " pas", "991": "bro", "992": "t's ", "993": "Ent", "994": "hadow", "995": " has ", "996": "eak", "997": "\u00c9om", "998": " when", "999": "into the "}}